0111011101110111011101110111011101110110011101110111011101110110011001110111011101110111
0111011101110111011101110111011101110111011101110111011101110111011001110111011101110111
0111011101110111011101110111011101110111011101110111011101110110011001110111011101110111
0111011101110111011101110111011101110111011101110111
0111011101110111011101110111011101110111011101110111011101110110011001100110011101100111
0111011101110111011101110111011101110111011101110111011101110111011101110111011101110111
0111011101110111011101110111011101110111011101110111011101110111011101110110011101110111
0111011101110111011101110111011101110111011101110111011101110111011101110111
0111011101110111011101110111011101110111011101110111011101110111011101110111
0110
0111011101110111011101110111011101110111011101110111011101110111011101110111011101110111
0111011101110111011101110111
011101110111011101110111011101110111011101100110
0111011101110111011101110111011101110111011101110111011101110111011101110111011101110111
01110111011101110111011101110111011101110111011101110111011101110111011101110111
0111011101100111
0111011101110111011101110111011101110111011101110111011101110111011101110111011101110111
0111011101110111011101110111111111110111011101111111111101110111011101110111011101110111
011101110111011101110111
011101110111
011101110111
0111
0111011101110111011111111111111111111111111111111111011101110111
01110110
011101110111011101110111011101110111011101111111011111110111
0111011101110111011101110111011101110111011101110111011101110111011101110111011101110111
0111011101110111011101110111011101110111011101110111011101110111011101110111011101110111
0111011101110111011101110111011101110111011101110111011101110111011111111111111111111111
111111110111
011101110111011101110111111111111111111111111111111101110111011101110110
01110111011101110111011101110111011101110111011101110111011001100111011101100110
0110011101110111011101110111011101110111011101110111011101110111011101110111011101110111
0111011101110111011101110111011101110111011101110111011101110111011101110111011101110111
0111011101110111011101110111011101110111011101110111011101110111011101110111011101110111
0111011101110111011101110111011101110111011101110111011101110111011101110111011101110111
0111011101110111011101110111011101110111011101110111011101110111011101110111011101110111
011101110111
0111011101110111111111111111111111111111111111111111011101110111
01110111011101110111011111111111111111111111111111110111011101110111
0111011101110111011101110111011101110111011101110111011101110111011101110111011101110111
0111011101110111011101110111011101110111011101110111011101110111011101110111011101110111
0110
01110110
0110011101110111011101110111011101110111011101110111011101110111011101110111011101110111
0111011101110111011111111111111111111111011101110111011101110111011101110111111111111111
0111
11111111111111111111111111111111
111111111111111111111111
1111
1111
1111111111111111111111111111111111111111
111111111111
1111111111111111111111111111
1111
11111111111111111111
111111111111
1111111111111111111111111111111111111111111111111111111111111111111111111111111111111111
111111111111111111111111111111111111111111111111111111111111
1111
1111
11111111
11111111111111111111
1111111111111111
1111111111111111
11111111111111111111
111111111111
111111111111111111111111111111111111
0111
011101110111
01111111111111111111
1111
11111111111111111111
011101111111
